/**
  ******************************************************************************
  * @file    network_ecblobs.h
  * @brief   NN Code autogenerated DO NOT MODIFY IT
  ******************************************************************************
  * @attention
  *
  * Copyright (c) 2024 STMicroelectronics.
  * All rights reserved.
  *
  * This software is licensed under terms that can be found in the LICENSE file
  * in the root directory of this software component.
  * If no LICENSE file comes with this software, it is provided AS-IS.
  *
  ******************************************************************************
  */


#ifdef __cplusplus
extern "C" {
#endif

#include "ll_aton_caches_interface.h"

#include <string.h>

#if !defined(ECBLOB_CONST_SECTION)
#define ECBLOB_CONST_SECTION /* Empty */
#endif
#if !defined(ECBLOB_RUNTIME_SECTION)
#define ECBLOB_RUNTIME_SECTION /* Empty */
#endif

ECBLOB_CONST_SECTION
// aligned to the cache line size (equal to 64 bytes)
__attribute__((aligned(64)))
static const uint64_t _ec_blob_network_2[1288] =
{
  0x00000a07ca057a7aUL, 0x0000007d0000005dUL, 0x3c007c0000802141UL, 0x3c0200e300000054UL,
  0x0000110010020101UL, 0x0001000210a34000UL, 0xffff0000ffff0000UL, 0x3c0a7c0000000001UL,
  0x3c0c004300000000UL, 0x0000000000000009UL, 0x5c00004200802241UL, 0x156000fc08000000UL,
  0x000a00005c020123UL, 0x0000000f00000000UL, 0x0000007f0000000fUL, 0x0000000000000000UL,
  0x00000001060403f1UL, 0x000000005c0c0043UL, 0x5c0b7c0020422042UL, 0x5d00200300000001UL,
  0x00006f87f57035d3UL, 0x000094f1f92d4952UL, 0x00004d6bf6bb234cUL, 0x0000b9e1f63a4aacUL,
  0x00007981f6791a6cUL, 0x00002936f99f1d8aUL, 0x0000c151f97b584dUL, 0x00000f0cfa2d2676UL,
  0x00002888f90639dbUL, 0x00009049f7153e63UL, 0x00000dbcf7424dedUL, 0x000072f3f8da46caUL,
  0x00008ef8fa3f0d84UL, 0x0000977bf8c05502UL, 0x0000481af6ab3846UL, 0x00007d2ef6a94e02UL,
  0x0000b29af57f3c5aUL, 0x00004572f89f56f0UL, 0x0000c504f65c4c47UL, 0x0000fab4f5c031f3UL,
  0x00005356fa5e2e9dUL, 0x0000485cf64156c4UL, 0x0000e947f7a841c4UL, 0x0000db8ef8c83963UL,
  0x00000ae6f8232a1eUL, 0x00004246f63f5da0UL, 0x000036b0f604298bUL, 0x0000a937fa3e3a8aUL,
  0x0000ce14f87a479dUL, 0x0000b328fa4a3cf5UL, 0x00005eb8f7292c46UL, 0x000058a0f8dd35c3UL,
  0x00006ec0f7582fc5UL, 0x0000554cf7dc16e2UL, 0x00000882f6655a27UL, 0x0000d9b3f8f14769UL,
  0x0000c68df8e34f03UL, 0x00000f86f7e65302UL, 0x00001df0f7654fc7UL, 0x000074a5f6653c55UL,
  0x00003164f9f153afUL, 0x000068bdf6005a52UL, 0x00007e06f9270fe5UL, 0x00006149f71f2c19UL,
  0x0000d488f69b3413UL, 0x00004b32f87e3170UL, 0x0000e292f6ad43f1UL, 0x00001b5ef8a15bdbUL,
  0x0000203bf8892f81UL, 0x00007c2af5ff4817UL, 0x00001535f8785755UL, 0x000050d1f93f25bdUL,
  0x0000f690f91e57fbUL, 0x0000ddc9f7a6474fUL, 0x00009241f5c20d97UL, 0x0000975bf79d38deUL,
  0x0000dc52f9045512UL, 0x000012b7f7174f30UL, 0x0000704ef90615bcUL, 0x0000e2a6f9d416f0UL,
  0x00005d92f6a42519UL, 0x0000e331f7fc2c44UL, 0x000091a4f92c588cUL, 0x00000727f8462e72UL,
  0x0000c31df8444c89UL, 0x0000625bf8521434UL, 0x000004ddf5f03d5bUL, 0x000019d0f83f4234UL,
  0x0000f456f9ef0859UL, 0x0000a589fa843c35UL, 0x00005dc4f9a7577aUL, 0x00009c74f86a554aUL,
  0x0000c206f94a5008UL, 0x0000484af6923a43UL, 0x00003f51f5d04900UL, 0x0000626df5b557abUL,
  0x00005806fac934acUL, 0x00008716f9c459ceUL, 0x00006c00f6244914UL, 0x00007324f91e2711UL,
  0x0000f222fa1f12c4UL, 0x00004bebfacc5290UL, 0x0000ac8cfa630fd1UL, 0x000067f9fa04265aUL,
  0x00000232f76e533dUL, 0x000052bff7115081UL, 0x0000c52efa4d52c6UL, 0x0000445ff98d4eb7UL,
  0x000091f0f6712cadUL, 0x00005f7efa814a6eUL, 0x000062aef954157fUL, 0x0000881ff9834202UL,
  0x0000cfeff6642fc8UL, 0x0000e7baf8da16d8UL, 0x0000e27ef70248e3UL, 0x0000950efa2e48e2UL,
  0x0000c7e5f7904101UL, 0x000011a8f91f40a2UL, 0x00005dc4f8723175UL, 0x000049a9f9323626UL,
  0x0000ac7ef70e3abaUL, 0x000099acf9644448UL, 0x0000cdb1f627436bUL, 0x00002f04f8a74f8dUL,
  0x000066d8f63b2226UL, 0x0000f216f54d11e4UL, 0x00006501f5de1712UL, 0x0000b95ffa2d0e63UL,
  0x000058b6f96f458fUL, 0x00000881fa964a5eUL, 0x0000f2b5fa385bb8UL, 0x00007e5bf59020d8UL,
  0x00009f72f60a4b8cUL, 0x00008a6af7914128UL, 0x00002f79f63f1e14UL, 0x0000fd00f9f24df0UL,
  0x00008f1af60e55dfUL, 0x0000d3fdf6aa3a58UL, 0x0000bb4bf56542bbUL, 0x0000ded3f6842546UL,
  0x00008673fa354452UL, 0x0000d4f3fa421b30UL, 0x0000d652f9f959cdUL, 0x0000dec5fa274ca8UL,
  0x0000ce5cfa650fdbUL, 0x000070b3f758314eUL, 0x00006faef9384bd0UL, 0x00009ffffa8636b4UL,
  0x6000004200802261UL, 0x1500000008000000UL, 0x0007000060027c00UL, 0x0000400060070043UL,
  0x600c004300000020UL, 0x1041104100000000UL, 0x2c007c00008020c1UL, 0x2c0200430008c100UL,
  0x00000002342e0080UL, 0x000000002c0500c3UL, 0x0000000100000002UL, 0x0000002400000000UL,
  0x2c0c004200100000UL, 0x0000000700000006UL, 0x000000082c0d0043UL, 0x2c110043342e00c7UL,
  0x0000000000000000UL, 0x18007c0000802021UL, 0x180200430008c184UL, 0x0000010070390040UL,
  0x00000000180500c3UL, 0x0000000000000000UL, 0x0000002400000000UL, 0x180c004200100000UL,
  0x0000000700000006UL, 0x00000001180d0043UL, 0x181100437039017fUL, 0x0000000800000000UL,
  0x28007c00008020a1UL, 0x2802004300080108UL, 0x00000010342e0000UL, 0x00000000280500c3UL,
  0x0000000000000010UL, 0x0000002400000000UL, 0x280c004200100000UL, 0x0000000700000006UL,
  0x00000008280d0043UL, 0x28110043342e00bfUL, 0x0000000000000000UL, 0x0000000210007c00UL,
  0x0000006410000424UL, 0x10007c0000000000UL, 0x10007bc440000000UL, 0x0000000000000064UL,
  0x0000000110007c00UL, 0x0000002710077c00UL, 0x0000000d100c0043UL, 0x101e7c0000000003UL,
  0x10207c0000000015UL, 0x2800200100000025UL, 0x000000553c007c00UL, 0x600020015c002001UL,
  0x2c00200118002001UL, 0x0000006428007fe4UL, 0x10077c0000000000UL, 0x100c004300000000UL,
  0x0000000000000000UL, 0x00000000101e7c00UL, 0x0000000010207c00UL, 0x0000000228007c00UL,
  0x0000006428000424UL, 0x28007c0000000000UL, 0x28007bc440000000UL, 0x0000000000000064UL,
  0x3c007c00008000a1UL, 0x3c00042400000002UL, 0x0000000000000064UL, 0x400000003c007c00UL,
  0x000000643c007bc4UL, 0x0080014100000000UL, 0x080000025c007c00UL, 0x000000645c000424UL,
  0x5c007c0000000000UL, 0x5c007bc448000000UL, 0x0000000000000064UL, 0x60007c0000800241UL,
  0x6000042408000002UL, 0x0000000000000064UL, 0x4800000060007c00UL, 0x0000006460007bc4UL,
  0x0080026100000000UL, 0x0000000218007c00UL, 0x0000006418000424UL, 0x18007c0000000000UL,
  0x18007bc440000000UL, 0x0000000000000064UL, 0x2c007c0000800021UL, 0x2c00042400000002UL,
  0x0000000000000064UL, 0x400000002c007c00UL, 0x000000642c007bc4UL, 0x008000c100000000UL,
  0x008021610000009dUL, 0x10d0003440007c00UL, 0x10800101400200e3UL, 0x10e3440400001100UL,
  0xffff000000010080UL, 0x00000001ffff0000UL, 0x00000000400a7c00UL, 0x00000000400d7c00UL,
  0x6400004200802281UL, 0x156000fc08000000UL, 0x0009800064020123UL, 0x0000000f00000000UL,
  0x0000007f0000000fUL, 0x0000000000000000UL, 0x00000001060403f1UL, 0x00000000640c0043UL,
  0x640b7c0020422042UL, 0x6500200300000001UL, 0x0000581efbfe380dUL, 0x00003c95fbe8502dUL,
  0x0000f8c0fbf840b1UL, 0x0000e0d2fbf0363dUL, 0x0000a9cdfc2939c0UL, 0x00003709fc0043bdUL,
  0x00005227fc2b3abdUL, 0x0000d53bfbe73531UL, 0x0000c413fc11549eUL, 0x0000ebaafbd2324cUL,
  0x0000a516fbf841a3UL, 0x0000b729fbf63732UL, 0x000007d8fbdf35acUL, 0x000092e0fbdf2cdbUL,
  0x00006537fbd639a6UL, 0x00004772fc023c3aUL, 0x00006a5efbf12ea2UL, 0x0000c176fbe13bb4UL,
  0x000085c6fc0e3db5UL, 0x0000046afc1042beUL, 0x0000d5c1fc0e3a42UL, 0x0000ac87fc293e64UL,
  0x0000cd4afc023468UL, 0x00002dc5fc193268UL, 0x0000ccfdfc003de2UL, 0x000091adfc063548UL,
  0x0000c07cfc063c41UL, 0x00005c5cfbf33430UL, 0x0000a25bfbf23c3aUL, 0x0000df80fc133546UL,
  0x000019c3fbe3313dUL, 0x0000c960fc1033d1UL, 0x000099d9fbd731ebUL, 0x0000fbfafbf630b8UL,
  0x00000ca5fc01388fUL, 0x0000864afbe92ff3UL, 0x0000fd7ffc17336cUL, 0x00007fcefbe23636UL,
  0x00007f4cfc163fafUL, 0x0000ec4ffbd033a4UL, 0x0000479efc1f339aUL, 0x00004fbcfc2233faUL,
  0x0000639dfbfb3c88UL, 0x00008ae4fc063694UL, 0x0000e641fc013491UL, 0x0000fe06fc182c20UL,
  0x0000148efc083759UL, 0x000077d3fbfd3a43UL, 0x000094cefc1e311fUL, 0x0000247cfc2b4295UL,
  0x0000fca6fbf72d96UL, 0x00008ac0fbf237bdUL, 0x00001572fc1d3eaaUL, 0x0000a130fbf23735UL,
  0x0000c40cfbe23137UL, 0x00002562fbe338eeUL, 0x00007647fc0132c0UL, 0x00004d13fbee3ad8UL,
  0x000011a0fc283c90UL, 0x00008f7efc2237ffUL, 0x0000e0e4fbe83606UL, 0x000091a3fbf03dc9UL,
  0x0000b38afc223db1UL, 0x0000187dfbf33adcUL, 0x0000703bfc233678UL, 0x0000bfa8fbfd34b2UL,
  0x0000b2aafc273a03UL, 0x000009a5fc0c36d9UL, 0x0000752afbe53aa4UL, 0x0000b8f1fbe53453UL,
  0x0000dc80fc103315UL, 0x000044f2fbe4320aUL, 0x00008951fc033fd0UL, 0x000047a6fc094a18UL,
  0x00001062fbda2f90UL, 0x00009c5cfbfe31eaUL, 0x0000f562fc22380bUL, 0x00008e53fbfd3099UL,
  0x0000d682fbea3696UL, 0x0000c85ffc2b34b7UL, 0x0000e1b7fc2633c6UL, 0x00006d2cfc0a2c7cUL,
  0x00006bdefbe83894UL, 0x0000b274fc1b4116UL, 0x000063eafc143abcUL, 0x00007537fbe6345dUL,
  0x000082fefbdd2ffcUL, 0x00009bbdfbe93018UL, 0x00001847fc2132adUL, 0x00008343fc093d75UL,
  0x000022d3fbfe34a7UL, 0x00004b68fc1e3906UL, 0x0000a7e7fbf03c8cUL, 0x0000f873fbfb3d96UL,
  0x0000294afc093cd1UL, 0x0000df9efc2e4346UL, 0x00009270fc03475fUL, 0x00007fb2fc0c3954UL,
  0x0000182efbdb3b54UL, 0x00006455fbd53d7fUL, 0x0000bc55fc0f397fUL, 0x00009da1fbfc2fa3UL,
  0x0000168efc2c3795UL, 0x00000fa0fc1336b6UL, 0x0000fa52fc2c3a2cUL, 0x0000b736fbf72cf2UL,
  0x00009e72fbfd402aUL, 0x00002652fbf433eaUL, 0x000002b5fbf1367aUL, 0x0000dab2fbff3642UL,
  0x000064d5fbd82f6cUL, 0x0000627efc0a39a3UL, 0x0000cf26fc0641a0UL, 0x00008f62fc173a61UL,
  0x0000aea5fc233224UL, 0x000021f5fc1935baUL, 0x000002e4fc113831UL, 0x00006c66fbec365dUL,
  0x000083edfbf23d93UL, 0x0000edd8fbe7344eUL, 0x0000a2a4fbe539efUL, 0x0000d573fc132f7bUL,
  0x00008c26fc3240a9UL, 0x000066eefc253dd9UL, 0x000076f2fc123a44UL, 0x00001784fbf2360dUL,
  0x0000810efbf33c6eUL, 0x0000a7ccfbf6380aUL, 0x68000042008022a1UL, 0x1500000008000000UL,
  0x0007000068027c00UL, 0x0000400068070043UL, 0x680c004300000020UL, 0x1041104100000000UL,
  0x30007c00008020e1UL, 0x3002004308880300UL, 0x0000002b342e0000UL, 0x00000000300500c3UL,
  0x0000000800000000UL, 0x0000002400000080UL, 0x300c004200100000UL, 0x0000000700000006UL,
  0x00000008300d0043UL, 0x30110043342e00bfUL, 0x0000000000000000UL, 0x1c007c0000802041UL,
  0x1c02004308880184UL, 0x0000155870380000UL, 0x000000001c0500c3UL, 0x0000000000000000UL,
  0x0000002400000000UL, 0x1c0c004200100000UL, 0x0000000700000006UL, 0x000000011c0d0043UL,
  0x1c11004370384047UL, 0x0000000800000000UL, 0x24007c0000802081UL, 0x2402004300080108UL,
  0x00000010342e0080UL, 0x00000000240500c3UL, 0x0000000000000010UL, 0x0000002400000000UL,
  0x240c004200100000UL, 0x0000000700000006UL, 0x00000008240d0043UL, 0x24110043342e013fUL,
  0x0000000000000000UL, 0x0000000210007c00UL, 0x0000006410000424UL, 0x10007c0000000000UL,
  0x10007bc440000000UL, 0x0000000000000064UL, 0x0000000110007c00UL, 0x0000002b10067c00UL,
  0x0000000f100f0043UL, 0x10227c0000000005UL, 0x10247c0000000017UL, 0x2400200100000029UL,
  0x10d0003540007c00UL, 0x6800200164002001UL, 0x300020011c002001UL, 0x0000006424007fe4UL,
  0x10067c0000000000UL, 0x100f004300000000UL, 0x0000000000000000UL, 0x0000000010227c00UL,
  0x0000000010247c00UL, 0x0000000224007c00UL, 0x0000006424000424UL, 0x24007c0000000000UL,
  0x24007bc440000000UL, 0x0000000000000064UL, 0x40007c0000800081UL, 0x4000042400000002UL,
  0x0000000000000064UL, 0x4000000040007c00UL, 0x0000006440007bc4UL, 0x0080016100000000UL,
  0x0800000264007c00UL, 0x0000006464000424UL, 0x64007c0000000000UL, 0x64007bc448000000UL,
  0x0000000000000064UL, 0x68007c0000800281UL, 0x6800042408000002UL, 0x0000000000000064UL,
  0x4800000068007c00UL, 0x0000006468007bc4UL, 0x008002a100000000UL, 0x000000021c007c00UL,
  0x000000641c000424UL, 0x1c007c0000000000UL, 0x1c007bc440000000UL, 0x0000000000000064UL,
  0x30007c0000800041UL, 0x3000042400000002UL, 0x0000000000000064UL, 0x4000000030007c00UL,
  0x0000006430007bc4UL, 0x008000e100000000UL, 0x00802181000000bdUL, 0x10d0003444007c00UL,
  0x10800101440200e3UL, 0x10e3440400001100UL, 0xffff000000010080UL, 0x00000001ffff0000UL,
  0x00000000440a7c00UL, 0x00000000440d7c00UL, 0x5c00004200802241UL, 0x156000fc08000000UL,
  0x000a00005c020123UL, 0x0000000f00000000UL, 0x0000007f0000000fUL, 0x0000000000000000UL,
  0x00000001060403f1UL, 0x000000005c0c0043UL, 0x5c0b7c0020422042UL, 0x5d00200300000001UL,
  0x000071cef7ef4b83UL, 0x0000574df7c843a1UL, 0x00001f7af81b4c83UL, 0x0000a279f7e64be4UL,
  0x0000d344f7f44db6UL, 0x000000cef81b42a1UL, 0x0000a1f9f81b49b0UL, 0x00000ad7f801521bUL,
  0x000021a2f819435eUL, 0x000067acf8134dc6UL, 0x0000c2def7c94f49UL, 0x00008d32f8314b48UL,
  0x00007be8f8285590UL, 0x0000d479f7c449e4UL, 0x00001eddf7f94dd7UL, 0x0000282ff82d4fbaUL,
  0x0000dab8f8385352UL, 0x000027d1f8125215UL, 0x0000b235f832535cUL, 0x0000abfbf7df500fUL,
  0x00006a38f8434fc3UL, 0x0000b89bf82e4c8cUL, 0x0000c548f7d34a01UL, 0x0000cf11f7e14708UL,
  0x00005bc4f80e4cfbUL, 0x00005218f7fe4e2aUL, 0x000040faf80152d5UL, 0x000016abf80e4896UL,
  0x0000d1bcf83b5129UL, 0x0000862ff8395508UL, 0x0000ca1ef7c64690UL, 0x00002820f8405031UL,
  0x00000846f804502dUL, 0x0000e0e2f7f04d9eUL, 0x00008267f7f047b2UL, 0x00004beef7d543c5UL,
  0x00002bbcf84b51e9UL, 0x0000fdf3f7c5431aUL, 0x00001635f8184b41UL, 0x0000b031f804439eUL,
  0x00001677f8285bd6UL, 0x00002647f7ee4e73UL, 0x00002ca8f7e34b65UL, 0x00005eb1f7dd4a1cUL,
  0x00003371f80351f2UL, 0x000027a5f7f34878UL, 0x00003367f82f5578UL, 0x0000584df7c74b84UL,
  0x0000d738f7f24bcfUL, 0x00009040f7c84fd0UL, 0x00007dacf83f5051UL, 0x0000cd06f8254fa5UL,
  0x00007585f7ea50f2UL, 0x00004b12f7d949cfUL, 0x000015b8f7d950bfUL, 0x000067faf84951e8UL,
  0x00005b65f8465691UL, 0x00002060f82e5399UL, 0x00006d75f7d55190UL, 0x000009abf8264855UL,
  0x000005bdf80f5486UL, 0x00009ce4f8285245UL, 0x000038fbf7ed4ef7UL, 0x0000b6c4f7ea4935UL,
  0x0000cdf9f7df432eUL, 0x00006025f7c147b1UL, 0x0000dc36f8374c2bUL, 0x0000d3bef8054ad2UL,
  0x00003c3df8414f68UL, 0x0000fc29f83b591eUL, 0x0000bd6af8474ae2UL, 0x00004bc0f7e54c7dUL,
  0x0000545ff830552eUL, 0x0000be60f80a53a9UL, 0x000086f2f7fe47d2UL, 0x0000da38f81b5944UL,
  0x0000a218f7cb4318UL, 0x00000287f8394dddUL, 0x00007de2f8264b9eUL, 0x0000198af83d5134UL,
  0x00008a99f8235079UL, 0x0000244af83b4a38UL, 0x00000c87f7d94680UL, 0x00001b1af7dc42d4UL,
  0x000085adf8434e15UL, 0x0000cd7bf83a52e9UL, 0x00005cd2f7df4cbeUL, 0x000096d3f7cf51ceUL,
  0x0000ef9ff7d6463bUL, 0x0000763ff843553cUL, 0x0000c65cf82c5644UL, 0x0000d957f82d4f9cUL,
  0x0000bb36f7d6555fUL, 0x0000652af7fe4f32UL, 0x0000b497f7d94e8cUL, 0x0000b431f8154f2aUL,
  0x000064a9f7f95281UL, 0x00009b4df8114e63UL, 0x00005783f7f54e19UL, 0x0000f337f8064c52UL,
  0x0000e82cf7d45306UL, 0x00009b76f7e44e76UL, 0x00006c59f7c0438dUL, 0x00000e6df81e5205UL,
  0x0000fe5df831503eUL, 0x00001b16f8174edeUL, 0x00004692f8324914UL, 0x00001d23f7d8508fUL,
  0x00004cedf7f05368UL, 0x00007bf6f83e46d1UL, 0x0000f634f7fc4cd2UL, 0x000033a1f82d4e30UL,
  0x0000b27af7f74b68UL, 0x00006b7cf825523aUL, 0x00000887f808570cUL, 0x000044daf7fe4fabUL,
  0x0000b763f7bf47ecUL, 0x00008276f8314aeaUL, 0x0000ba69f7bd50fbUL, 0x0000ef78f7d34701UL,
  0x00003a21f7d54243UL, 0x00002843f81a542aUL, 0x00005cb3f7f04eb0UL, 0x00008626f7ff4afcUL,
  0x00007fcaf8265d41UL, 0x00002d6df833520bUL, 0x0000a338f8344db2UL, 0x0000e219f7c241b0UL,
  0x6000004200802261UL, 0x1500000008000000UL, 0x0007000060027c00UL, 0x0000400060070043UL,
  0x600c004300000020UL, 0x1041104100000000UL, 0x20007c0000802061UL, 0x2002004308880300UL,
  0x0000002b342e0080UL, 0x00000000200500c3UL, 0x0000000800000000UL, 0x0000002400000080UL,
  0x200c004200100000UL, 0x0000000700000006UL, 0x00000008200d0043UL, 0x20110043342e013fUL,
  0x0000000000000000UL, 0x30007c00008020e1UL, 0x3002004308880184UL, 0x0000155870384010UL,
  0x00000000300500c3UL, 0x0000000000000000UL, 0x0000002400000000UL, 0x300c004200100000UL,
  0x0000000700000006UL, 0x00000001300d0043UL, 0x3011004370388057UL, 0x0000000800000000UL,
  0x2c007c00008020c1UL, 0x2c02004300080108UL, 0x00000010342e0000UL, 0x000000002c0500c3UL,
  0x0000000000000010UL, 0x0000002400000000UL, 0x2c0c004200100000UL, 0x0000000700000006UL,
  0x000000082c0d0043UL, 0x2c110043342e00bfUL, 0x0000000000000000UL, 0x0000000210007c00UL,
  0x0000006410000424UL, 0x10007c0000000000UL, 0x10007bc440000000UL, 0x0000000000000064UL,
  0x0000000110007c00UL, 0x0000002710087c00UL, 0x0000000710120043UL, 0x101e7c000000000fUL,
  0x10207c0000000019UL, 0x2c00200100000025UL, 0x10d0003544007c00UL, 0x600020015c002001UL,
  0x3000200120002001UL, 0x000000642c007fe4UL, 0x10087c0000000000UL, 0x1012004300000000UL,
  0x0000000000000000UL, 0x00000000101e7c00UL, 0x0000000010207c00UL, 0x000000022c007c00UL,
  0x000000642c000424UL, 0x2c007c0000000000UL, 0x2c007bc440000000UL, 0x0000000000000064UL,
  0x44007c00008000c1UL, 0x4400042400000002UL, 0x0000000000000064UL, 0x4000000044007c00UL,
  0x0000006444007bc4UL, 0x0080018100000000UL, 0x080000025c007c00UL, 0x000000645c000424UL,
  0x5c007c0000000000UL, 0x5c007bc448000000UL, 0x0000000000000064UL, 0x60007c0000800241UL,
  0x6000042408000002UL, 0x0000000000000064UL, 0x4800000060007c00UL, 0x0000006460007bc4UL,
  0x0080026100000000UL, 0x0000000220007c00UL, 0x0000006420000424UL, 0x20007c0000000000UL,
  0x20007bc440000000UL, 0x0000000000000064UL, 0x30007c0000800061UL, 0x3000042400000002UL,
  0x0000000000000064UL, 0x4000000030007c00UL, 0x0000006430007bc4UL, 0x008000e100000000UL,
  0x008021a1000000ddUL, 0x10d0003448007c00UL, 0x10800101480200e3UL, 0x10e3440400001100UL,
  0xffff000000010080UL, 0x00000001ffff0000UL, 0x00000000480a7c00UL, 0x00000000480d7c00UL,
  0x6400004200802281UL, 0x156000fc08000000UL, 0x000a000064020123UL, 0x0000000f00000000UL,
  0x0000007f0000000fUL, 0x0000000000000000UL, 0x00000001060403f1UL, 0x00000000640c0043UL,
  0x640b7c0020422042UL, 0x6500200300000001UL, 0x0000f5fdf8055de8UL, 0x00008934f81b534dUL,
  0x0000dbaef7fb52c2UL, 0x0000a9b5f804586cUL, 0x00009598f7dd5f60UL, 0x00008a30f7e74a37UL,
  0x0000fd94f7c64df1UL, 0x0000f0bcf82c556bUL, 0x0000f3ebf8204f36UL, 0x0000637cf8285472UL,
  0x00005c45f8325395UL, 0x00005524f7ff52d7UL, 0x00008401f81f5a35UL, 0x000027cef7f45adaUL,
  0x00008301f82c59aeUL, 0x0000c330f7d34a43UL, 0x0000eb0df7fa55a9UL, 0x00009520f8255c91UL,
  0x0000f46ef7df5320UL, 0x0000dd11f7e75dccUL, 0x0000bdeff80654b5UL, 0x000096a7f81a55b0UL,
  0x0000ecb2f7e5507cUL, 0x000026a0f8206032UL, 0x0000c86bf7c65813UL, 0x0000e7b1f8064fe5UL,
  0x00002594f82656ceUL, 0x00003d2af7fe5a2bUL, 0x00002f1ef8265837UL, 0x00005265f7df4af2UL,
  0x00000f3ef7ff578cUL, 0x00000e5ef80c57b6UL, 0x00007629f83a5d23UL, 0x0000892df824599cUL,
  0x00006f9df7c85184UL, 0x0000694bf8155259UL, 0x0000dc02f81e5b33UL, 0x0000d98df7e24873UL,
  0x0000d14cf7fc5653UL, 0x000062b2f8395bacUL, 0x0000bfa7f7dc4ac6UL, 0x00002d62f83b580cUL,
  0x00008b56f7e64b1fUL, 0x0000a8aef82e5b0dUL, 0x0000f921f8125f3dUL, 0x0000da3df8375749UL,
  0x00002cb9f7cb4af2UL, 0x0000ee7df8285595UL, 0x00002761f8325b39UL, 0x000035d0f7f24faaUL,
  0x0000aedbf82d5ea6UL, 0x0000cecdf7d5542eUL, 0x0000ec3af7fb5b42UL, 0x00006ec5f7ff595fUL,
  0x00000888f8295fa9UL, 0x0000c1d2f8235acdUL, 0x00002e9ef7c25344UL, 0x0000c1a8f7e14aacUL,
  0x00001f6ef7db4eacUL, 0x0000fe8ef8225248UL, 0x00000b2ff8305399UL, 0x0000470ff7dc4b27UL,
  0x0000c10cf82b5438UL, 0x00007193f8255596UL, 0x0000c5d0f8205ca4UL, 0x0000552ef830598aUL,
  0x0000e92ef8195601UL, 0x0000ce84f7e45d35UL, 0x00007c96f7f0572aUL, 0x0000ff41f82f593dUL,
  0x00000d1df7d751f0UL, 0x0000d31af7da54c8UL, 0x0000cb05f7d652f1UL, 0x0000bb6ff8115628UL,
  0x0000ecccf8025180UL, 0x00004f57f83b60e7UL, 0x0000d43bf7ec561aUL, 0x0000073ff7f14b3fUL,
  0x0000bec0f82d53b0UL, 0x00007212f8385b19UL, 0x000029abf80c5805UL, 0x00006431f81c5affUL,
  0x000027a5f7c46163UL, 0x0000ae79f81453dfUL, 0x000065a1f7ea5cdaUL, 0x0000d55cf7cd4a65UL,
  0x0000398ef7f956b9UL, 0x00003699f81d5bb1UL, 0x0000a272f8276085UL, 0x0000a91cf7db4a7fUL,
  0x000088a8f8094851UL, 0x0000474df8195abfUL, 0x00007275f7da615aUL, 0x0000a769f80f5144UL,
  0x0000d733f7fa5ab3UL, 0x0000af04f7da488bUL, 0x000094fcf7de4a5aUL, 0x00005ab2f7d856a7UL,
  0x0000e3bcf7f45759UL, 0x0000d4cdf80e5eecUL, 0x0000c3f7f7e75119UL, 0x00008dc6f837577cUL,
  0x00005ebbf7fc5b37UL, 0x0000f882f80c5389UL, 0x0000fc82f80f59f2UL, 0x0000ff06f82358fbUL,
  0x0000700cf82b5453UL, 0x0000ce8ff7d95b1dUL, 0x00009b38f8155b0dUL, 0x000001aaf8325534UL,
  0x0000d3dff7d655a6UL, 0x0000f40df7e75014UL, 0x0000ebeef81257acUL, 0x00009e21f82d5905UL,
  0x000009d6f82953ecUL, 0x000073eff7f152a4UL, 0x0000175bf81058d4UL, 0x00001b2ff7ce4b31UL,
  0x0000f36df7dc4b16UL, 0x00008da9f8104e34UL, 0x000035fef8205d70UL, 0x00005f51f80054baUL,
  0x0000142df8035970UL, 0x0000d2c0f8104abdUL, 0x0000c23ff7c84ffbUL, 0x000032aef7e14a64UL,
  0x00003c34f8415d97UL, 0x00003bf1f7ca50efUL, 0x68000042008022a1UL, 0x1500000008000000UL,
  0x0007000068027c00UL, 0x0000400068070043UL, 0x680c004300000020UL, 0x1041104100000000UL,
  0x14007c0000802001UL, 0x1402004308880300UL, 0x0000002b342e0000UL, 0x00000000140500c3UL,
  0x0000000800000000UL, 0x0000002400000080UL, 0x140c004200100000UL, 0x0000000700000006UL,
  0x00000008140d0043UL, 0x14110043342e00bfUL, 0x0000000000000000UL, 0x30007c00008020e1UL,
  0x3002004308880184UL, 0x0000155870388020UL, 0x00000000300500c3UL, 0x0000000000000000UL,
  0x0000002400000000UL, 0x300c004200100000UL, 0x0000000700000006UL, 0x00000001300d0043UL,
  0x301100437038c067UL, 0x0000000800000000UL, 0x34007c0000802101UL, 0x3402004300080108UL,
  0x00000010342e0080UL, 0x00000000340500c3UL, 0x0000000000000010UL, 0x0000002400000000UL,
  0x340c004200100000UL, 0x0000000700000006UL, 0x00000008340d0043UL, 0x34110043342e013fUL,
  0x0000000000000000UL, 0x0000000210007c00UL, 0x0000006410000424UL, 0x10007c0000000000UL,
  0x10007bc440000000UL, 0x0000000000000064UL, 0x0000000110007c00UL, 0x0000002b100a7c00UL,
  0x0000000110150043UL, 0x10227c000000000fUL, 0x10247c000000001bUL, 0x3400200100000029UL,
  0x10d0003548007c00UL, 0x6800200164002001UL, 0x3000200114002001UL, 0x0000006434007fe4UL,
  0x100a7c0000000000UL, 0x1015004300000000UL, 0x0000000000000000UL, 0x0000000010227c00UL,
  0x0000000010247c00UL, 0x0000000234007c00UL, 0x0000006434000424UL, 0x34007c0000000000UL,
  0x34007bc440000000UL, 0x0000000000000064UL, 0x48007c0000800101UL, 0x4800042400000002UL,
  0x0000000000000064UL, 0x4000000048007c00UL, 0x0000006448007bc4UL, 0x008001a100000000UL,
  0x0800000264007c00UL, 0x0000006464000424UL, 0x64007c0000000000UL, 0x64007bc448000000UL,
  0x0000000000000064UL, 0x68007c0000800281UL, 0x6800042408000002UL, 0x0000000000000064UL,
  0x4800000068007c00UL, 0x0000006468007bc4UL, 0x008002a100000000UL, 0x0000000214007c00UL,
  0x0000006414000424UL, 0x14007c0000000000UL, 0x14007bc440000000UL, 0x0000000000000064UL,
  0x30007c0000800001UL, 0x3000042400000002UL, 0x0000000000000064UL, 0x4000000030007c00UL,
  0x0000006430007bc4UL, 0x008000e100000000UL, 0x00802141000000fdUL, 0x10d000343c007c00UL,
  0x108001013c0200e3UL, 0x10e3440400001100UL, 0xffff000000010080UL, 0x00000001ffff0000UL,
  0x000000003c0a7c00UL, 0x000000003c0d7c00UL, 0x5c00004200802241UL, 0x156000fc08000000UL,
  0x000a00005c020123UL, 0x0000000f00000000UL, 0x0000007f0000000fUL, 0x0000000000000000UL,
  0x00000001060403f1UL, 0x000000005c0c0043UL, 0x5c0b7c0020422042UL, 0x5d00200300000001UL,
  0x0000acd7f7d05689UL, 0x00008fd3f7cb54a1UL, 0x00007a5ff7e65a1eUL, 0x00007274f81b63d8UL,
  0x00000e98f80260d8UL, 0x00008e87f8126468UL, 0x00000a1ef8315cddUL, 0x0000774cf8075b04UL,
  0x0000ed6ff8245a16UL, 0x0000de43f80c5e4aUL, 0x0000773df7fd61edUL, 0x00008a98f81c6292UL,
  0x0000dcbaf7f2614fUL, 0x00003eccf7ec5381UL, 0x000080bdf804621bUL, 0x0000974ff7d54dd3UL,
  0x0000b79ef81961b7UL, 0x00007f6bf7db5c94UL, 0x0000620af81459dfUL, 0x00004319f7d656a6UL,
  0x00004969f8255d5bUL, 0x0000d496f7d55b4bUL, 0x00006a33f80c5d4eUL, 0x00008eedf7fe5c45UL,
  0x0000034df8014cd5UL, 0x00006f7ff8085d62UL, 0x0000d363f7f94e4cUL, 0x000010bff7d54d44UL,
  0x00000ae3f8175a3bUL, 0x000057f1f82a6261UL, 0x00003b9af7e259ebUL, 0x00001b3ff82858e5UL,
  0x00006681f7d64d98UL, 0x0000892cf7e7555bUL, 0x0000fc9cf82f61fcUL, 0x00001ec8f7de581cUL,
  0x0000053cf7f0537cUL, 0x0000aab0f7f24dccUL, 0x00007625f80a62f6UL, 0x00005ac3f7d95cf3UL,
  0x00007809f817603aUL, 0x000098a8f81f581aUL, 0x0000769bf7cf5147UL, 0x00001b6cf82b5b7cUL,
  0x0000904cf8246472UL, 0x0000d1b9f81b5631UL, 0x0000750cf7db5fe3UL, 0x000082acf8035a6fUL,
  0x0000a051f8135e3eUL, 0x00005aecf80e5dedUL, 0x00002efdf7e84e5bUL, 0x0000d5ddf7fc5aa5UL,
  0x0000b96bf7ce542bUL, 0x00005d23f7e54e52UL, 0x0000f75ef7ed519fUL, 0x00004f81f8035133UL,
  0x00006b20f7dc5323UL, 0x00001759f7fe61bbUL, 0x00003c91f7fd5667UL, 0x0000a019f7fc580aUL,
  0x0000a329f7fe4e9cUL, 0x00000ba6f7de55bfUL, 0x0000a9acf80d5d1eUL, 0x0000e116f7f94ddcUL,
  0x00009b77f7d96001UL, 0x00007226f7d44d4cUL, 0x0000d88ef7d75bbbUL, 0x00004887f7fc5587UL,
  0x000009dcf7da630aUL, 0x00000af3f7fb5ee2UL, 0x00001f4ff7f44b6eUL, 0x0000fd18f8205e5cUL,
  0x0000272af7f15c48UL, 0x0000eab3f7f05968UL, 0x0000095ef8196346UL, 0x00007d8bf8205da7UL,
  0x00000f77f7d75988UL, 0x00001fd7f7d254ccUL, 0x00002be4f822650fUL, 0x0000a1cff8064e49UL,
  0x0000d7e8f7eb4e68UL, 0x0000f140f816638cUL, 0x0000dfe3f7dd5ae2UL, 0x0000fce4f82c5e10UL,
  0x000066fef7de5381UL, 0x0000dddbf81a5b2cUL, 0x000055d5f7d6520cUL, 0x0000110df7f85c51UL,
  0x00002463f8055152UL, 0x0000326cf82e5c09UL, 0x0000c4b8f8276046UL, 0x0000a10ef8306398UL,
  0x0000dc6ff7dd4e56UL, 0x000064b5f82e5e36UL, 0x00000f02f7e35687UL, 0x00001dbdf8055cbaUL,
  0x0000a5e4f7d85603UL, 0x00001730f7e04e14UL, 0x0000a845f81e6461UL, 0x000079ecf7fe64aaUL,
  0x00002538f8045bc8UL, 0x00008af6f82a5f53UL, 0x0000aacaf80557edUL, 0x00001e85f81259daUL,
  0x0000323df7f74e39UL, 0x00006a13f82d5b5dUL, 0x00009968f815598cUL, 0x00009022f7d5625fUL,
  0x00000c70f8025f5aUL, 0x0000e79cf80352dfUL, 0x00001ecdf82b64fcUL, 0x0000289ef8035268UL,
  0x00002075f7fd6212UL, 0x000066aef8085607UL, 0x00001001f7e95e24UL, 0x0000c33cf7de4e55UL,
  0x00003d22f7e94e04UL, 0x00007896f82d6034UL, 0x00003999f8275e03UL, 0x00004d64f7e1580dUL,
  0x00002a9ff82c6136UL, 0x00004336f8225d00UL, 0x00008d54f818584bUL, 0x0000d587f8285e04UL,
  0x00002237f81e6483UL, 0x0000d020f80256a2UL, 0x000072f1f82f5745UL, 0x00005f75f82d5d4cUL,
  0x6000004200802261UL, 0x1500000008000000UL, 0x0007000060027c00UL, 0x0000400060070043UL,
  0x600c004300000020UL, 0x1041104100000000UL, 0x38007c0000802121UL, 0x3802004308880300UL,
  0x0000002b342e0080UL, 0x00000000380500c3UL, 0x0000000800000000UL, 0x0000002400000080UL,
  0x380c004200100000UL, 0x0000000700000006UL, 0x00000008380d0043UL, 0x38110043342e013fUL,
  0x0000000000000000UL, 0x18007c0000802021UL, 0x1802004308880184UL, 0x000015587038c030UL,
  0x00000000180500c3UL, 0x0000000000000000UL, 0x0000002400000000UL, 0x180c004200100000UL,
  0x0000000700000006UL, 0x00000001180d0043UL, 0x1811004370390077UL, 0x0000000800000000UL,
  0x1c007c0000802041UL, 0x1c02004300080108UL, 0x00000010342e0000UL, 0x000000001c0500c3UL,
  0x0000000000000010UL, 0x0000002400000000UL, 0x1c0c004200100000UL, 0x0000000700000006UL,
  0x000000081c0d0043UL, 0x1c110043342e00bfUL, 0x0000000000000000UL, 0x0000000210007c00UL,
  0x0000006410000424UL, 0x10007c0000000000UL, 0x10007bc440000000UL, 0x0000000000000064UL,
  0x0000000110007c00UL, 0x0000002710047c00UL, 0x00000013100c0043UL, 0x101e7c0000000003UL,
  0x10207c0000000015UL, 0x1c00200100000025UL, 0x10d000353c007c00UL, 0x600020015c002001UL,
  0x3800200118002001UL, 0x000000641c007fe4UL, 0x10047c0000000000UL, 0x100c004300000000UL,
  0x0000000000000000UL, 0x00000000101e7c00UL, 0x0000000010207c00UL, 0x000000021c007c00UL,
  0x000000641c000424UL, 0x1c007c0000000000UL, 0x1c007bc440000000UL, 0x0000000000000064UL,
  0x3c007c0000800041UL, 0x3c00042400000002UL, 0x0000000000000064UL, 0x400000003c007c00UL,
  0x000000643c007bc4UL, 0x0080014100000000UL, 0x080000025c007c00UL, 0x000000645c000424UL,
  0x5c007c0000000000UL, 0x5c007bc448000000UL, 0x0000000000000064UL, 0x60007c0000800241UL,
  0x6000042408000002UL, 0x0000000000000064UL, 0x4800000060007c00UL, 0x0000006460007bc4UL,
  0x0080026100000000UL, 0x0000000218007c00UL, 0x0000006418000424UL, 0x18007c0000000000UL,
  0x18007bc440000000UL, 0x0000000000000064UL, 0x38007c0000800021UL, 0x3800042400000002UL,
  0x0000000000000064UL, 0x4000000038007c00UL, 0x0000006438007bc4UL, 0x0080012100000000UL,
  0x008021610000011dUL, 0x10d0003440007c00UL, 0x01800101400200e3UL, 0x10e7410100001100UL,
  0xffff000000010080UL, 0x00000001ffff0000UL, 0x00000000400a7c00UL, 0x00000000400d7c00UL,
  0x6400004200802281UL, 0x1500006008000000UL, 0x000c014064027c00UL, 0x362d5e1b64070043UL,
  0x640c0043000002bcUL, 0x2042204200000000UL, 0x1c007c0000802041UL, 0x1c02004308880304UL,
  0x0000002b342e0000UL, 0x000000001c0500c3UL, 0x0000000100000000UL, 0x0000002400000080UL,
  0x1c0c004200100000UL, 0x0000000700000006UL, 0x000000011c0d0043UL, 0x1c110043342e00bfUL,
  0x0000000000000000UL, 0x38007c0000802121UL, 0x3802004308880184UL, 0x0000002b70390140UL,
  0x00000000380500c3UL, 0x0000000000000000UL, 0x0000002400000000UL, 0x380c004200100000UL,
  0x0000000700000006UL, 0x00000001380d0043UL, 0x3811004370390207UL, 0x0000000800000000UL,
  0x28007c00008020a1UL, 0x280200430008010cUL, 0x00000001342e0080UL, 0x00000000280500c3UL,
  0x0000000000000001UL, 0x0000002400000000UL, 0x280c004200100000UL, 0x0000000700000006UL,
  0x00000001280d0043UL, 0x28110043342e00c7UL, 0x0000000000000000UL, 0x0000000210007c00UL,
  0x0000006410000424UL, 0x10007c0000000000UL, 0x10007bc440000000UL, 0x0000000000000064UL,
  0x0000000110007c00UL, 0x0000002910077c00UL, 0x00000005100f0043UL, 0x10227c0000000013UL,
  0x2800200100000017UL, 0x10d0003540007c00UL, 0x1c00200164002001UL, 0x28007fe438002001UL,
  0x0000000000000064UL, 0x0000000010077c00UL, 0x00000000100f0043UL, 0x10227c0000000000UL,
  0x28007c0000000000UL, 0x2800042400000002UL, 0x0000000000000064UL, 0x4000000028007c00UL,
  0x0000006428007bc4UL, 0x008000a100000000UL, 0x0000000240007c00UL, 0x0000006440000424UL,
  0x40007c0000000000UL, 0x40007bc440000000UL, 0x0000000000000064UL, 0x64007c0000800161UL,
  0x6400042408000002UL, 0x0000000000000064UL, 0x4800000064007c00UL, 0x0000006464007bc4UL,
  0x0080028100000000UL, 0x000000021c007c00UL, 0x000000641c000424UL, 0x1c007c0000000000UL,
  0x1c007bc440000000UL, 0x0000000000000064UL, 0x38007c0000800041UL, 0x3800042400000002UL,
  0x0000000000000064UL, 0x4000000038007c00UL, 0x0000006438007bc4UL, 0x0080012100000000UL,
  0x000000000000000cUL
};

#define _ec_blob_network_2_address _ec_blob_network_2

// this macro returns true if _ec_blob_network_2 blob is encrypted and must be decrypted on the fly, false otherwise
#define LL_ATON_EC_MustDecryptBlob_network__ec_blob_network_2 false

// this function MUST be called ONLY ONCE once for initializing the network
bool LL_ATON_EC_Network_Init_network(void)
{
  return true;
}

// this function should be called before each inference
bool LL_ATON_EC_Inference_Init_network(void)
{
  return true;
}

#ifdef __cplusplus
}
#endif
